-0.845311412008216 -0.27931476130134725 -0.8346960138550937 0.20020197391285344 1.2227219266942178 0.6301043268657082 -0.27592490505829753 0.10946346293100469 -0.8689007340783385 2.061589072894621 1.1202349095501651 -0.6472790602872521 -0.45298713974159616 0.6244654919208469 -0.4535281835123746 1.319437330593468